<unk>	0
<s>	0
</s>	0
<pad>	0
<|user|>	0
<|assistant|>	0
▁t	-0
▁a	-1
ou	-2
he	-3
in	-4
re	-5
▁I	-6
▁s	-7
▁w	-8
ha	-9
▁y	-10
▁you	-11
▁the	-12
▁m	-13
on	-14
▁c	-15
er	-16
▁to	-17
▁b	-18
it	-19
▁f	-20
or	-21
▁d	-22
ll	-23
ing	-24
is	-25
an	-26
es	-27
▁p	-28
▁l	-29
en	-30
hat	-31
▁g	-32
ve	-33
▁an	-34
▁o	-35
▁W	-36
om	-37
▁n	-38
ar	-39
▁ha	-40
ow	-41
et	-42
▁in	-43
at	-44
ed	-45
▁T	-46
st	-47
ay	-48
le	-49
▁th	-50
▁it	-51
▁of	-52
▁is	-53
▁and	-54
ic	-55
ke	-56
ot	-57
▁Y	-58
▁be	-59
as	-60
▁for	-61
ld	-62
▁re	-63
▁e	-64
oo	-65
▁H	-66
▁on	-67
▁do	-68
▁have	-69
▁we	-70
ut	-71
▁he	-72
▁that	-73
▁h	-74
gh	-75
id	-76
▁me	-77
ver	-78
al	-79
se	-80
▁li	-81
ould	-82
▁A	-83
out	-84
▁are	-85
▁your	-86
all	-87
▁S	-88
ent	-89
ght	-90
▁u	-91
ri	-92
ion	-93
ac	-94
▁can	-95
▁M	-96
im	-97
▁st	-98
▁ne	-99
ro	-100
ir	-101
▁What	-102
ly	-103
▁my	-104
ome	-105
▁like	-106
ill	-107
▁O	-108
▁C	-109
▁D	-110
ith	-111
ad	-112
▁It	-113
▁k	-114
▁se	-115
▁go	-116
▁We	-117
▁The	-118
▁with	-119
nd	-120
▁You	-121
ch	-122
▁ab	-123
▁this	-124
ant	-125
ood	-126
ter	-127
am	-128
our	-129
ust	-130
ally	-131
ink	-132
▁j	-133
▁B	-134
▁Yes	-135
▁so	-136
▁about	-137
▁at	-138
if	-139
▁N	-140
▁su	-141
very	-142
▁think	-143
ake	-144
ce	-145
han	-146
ct	-147
her	-148
▁kn	-149
▁don	-150
▁sh	-151
▁get	-152
▁know	-153
▁not	-154
ook	-155
▁How	-156
op	-157
▁was	-158
ur	-159
th	-160
▁wor	-161
▁but	-162
ry	-163
ore	-164
ea	-165
▁will	-166
▁He	-167
▁there	-168
ble	-169
ice	-170
▁want	-171
▁see	-172
▁ex	-173
▁as	-174
▁com	-175
▁what	-176
end	-177
nt	-178
ge	-179
▁some	-180
▁That	-181
pp	-182
ind	-183
us	-184
ation	-185
ra	-186
▁L	-187
▁or	-188
ime	-189
ight	-190
▁Do	-191
▁any	-192
▁al	-193
▁all	-194
ase	-195
il	-196
▁one	-197
▁pro	-198
▁would	-199
art	-200
▁just	-201
..	-202
▁good	-203
est	-204
ul	-205
right	-206
▁pl	-207
▁wh	-208
▁need	-209
▁time	-210
▁de	-211
rom	-212
qu	-213
ive	-214
▁very	-215
ate	-216
one	-217
▁G	-218
▁Well	-219
ment	-220
▁here	-221
▁work	-222
▁out	-223
lease	-224
ess	-225
ong	-226
▁really	-227
▁sp	-228
▁E	-229
ast	-230
▁did	-231
▁am	-232
day	-233
▁right	-234
▁up	-235
▁too	-236
ure	-237
hen	-238
▁look	-239
▁going	-240
ain	-241
ort	-242
▁mu	-243
ers	-244
▁te	-245
▁P	-246
▁No	-247
▁our	-248
▁they	-249
ck	-250
▁Oh	-251
▁But	-252
ine	-253
any	-254
ig	-255
▁from	-256
▁co	-257
ven	-258
▁much	-259
▁comp	-260
ie	-261
▁fe	-262
os	-263
▁F	-264
hank	-265
ard	-266
ack	-267
▁r	-268
▁con	-269
▁us	-270
▁take	-271
▁J	-272
el	-273
ound	-274
▁if	-275
un	-276
lp	-277
▁Wh	-278
and	-279
▁please	-280
ear	-281
▁help	-282
ere	-283
ays	-284
▁cl	-285
▁should	-286
▁mo	-287
▁lo	-288
ite	-289
▁qu	-290
▁R	-291
▁off	-292
▁been	-293
ame	-294
um	-295
hing	-296
ning	-297
ist	-298
▁af	-299
here	-300
▁now	-301
res	-302
▁new	-303
reat	-304
▁how	-305
▁int	-306
are	-307
ity	-308
▁them	-309
ak	-310
ick	-311
▁ro	-312
▁Is	-313
▁got	-314
▁more	-315
▁Can	-316
ob	-317
▁And	-318
▁v	-319
thing	-320
▁1	-321
ree	-322
ies	-323
▁Thank	-324
ount	-325
▁pe	-326
ect	-327
ass	-328
▁could	-329
▁no	-330
ople	-331
▁ag	-332
omet	-333
▁make	-334
ol	-335
▁Th	-336
ag	-337
ous	-338
per	-339
use	-340
▁che	-341
▁over	-342
▁people	-343
ek	-344
▁has	-345
irst	-346
...	-347
▁tw	-348
▁bus	-349
▁when	-350
act	-351
▁by	-352
ther	-353
▁bu	-354
ish	-355
▁week	-356
▁lot	-357
▁sa	-358
▁en	-359
▁ch	-360
▁every	-361
▁she	-362
ep	-363
00	-364
▁Are	-365
▁had	-366
▁ar	-367
▁tr	-368
▁sure	-369
▁her	-370
▁My	-371
▁somet	-372
row	-373
ci	-374
▁tell	-375
▁So	-376
ud	-377
▁thing	-378
able	-379
▁well	-380
ough	-381
▁year	-382
der	-383
ving	-384
▁call	-385
ff	-386
age	-387
▁May	-388
▁They	-389
▁come	-390
▁pre	-391
▁V	-392
▁today	-393
▁day	-394
cc	-395
▁long	-396
▁room	-397
▁Why	-398
ide	-399
itt	-400
▁OK	-401
▁Ch	-402
▁great	-403
▁first	-404
red	-405
▁Good	-406
▁Let	-407
▁job	-408
orning	-409
ach	-410
oy	-411
blem	-412
ually	-413
▁does	-414
orry	-415
lf	-416
▁problem	-417
▁then	-418
▁after	-419
▁sir	-420
▁There	-421
▁Ha	-422
▁cour	-423
▁This	-424
▁other	-425
ty	-426
▁morning	-427
▁pr	-428
ber	-429
▁way	-430
▁kind	-431
port	-432
ich	-433
▁back	-434
▁two	-435
▁app	-436
▁bet	-437
king	-438
eah	-439
▁many	-440
so	-441
ace	-442
▁something	-443
ary	-444
▁Mr	-445
▁ad	-446
▁part	-447
xt	-448
▁only	-449
ress	-450
▁If	-451
llo	-452
▁let	-453
▁last	-454
pt	-455
▁won	-456
▁im	-457
ab	-458
▁company	-459
ance	-460
▁2	-461
ose	-462
em	-463
▁gu	-464
ail	-465
▁didn	-466
ng	-467
oney	-468
erv	-469
▁pay	-470
▁say	-471
▁course	-472
ought	-473
riend	-474
▁fl	-475
▁res	-476
ool	-477
▁feel	-478
▁Hello	-479
own	-480
▁were	-481
▁find	-482
▁car	-483
ue	-484
▁him	-485
▁anything	-486
fore	-487
▁also	-488
▁per	-489
▁meet	-490
▁buy	-491
▁give	-492
ans	-493
other	-494
▁tra	-495
▁Here	-496
▁love	-497
be	-498
▁Have	-499
▁check	-500
ady	-501
▁br	-502
▁Sure	-503
ittle	-504
ert	-505
▁little	-506
ark	-507
▁Yeah	-508
▁happ	-509
▁lea	-510
▁try	-511
▁exp	-512
iff	-513
▁yes	-514
▁un	-515
▁before	-516
▁Chin	-517
ign	-518
▁Would	-519
▁wr	-520
▁even	-521
▁Did	-522
du	-523
▁sorry	-524
ater	-525
▁chan	-526
▁who	-527
▁diff	-528
ca	-529
▁name	-530
▁next	-531
erest	-532
iz	-533
▁money	-534
▁may	-535
ways	-536
▁mon	-537
ade	-538
ition	-539
▁Hi	-540
▁than	-541
▁In	-542
▁better	-543
▁She	-544
▁min	-545
▁interest	-546
▁always	-547
▁start	-548
▁ll	-549
▁use	-550
▁must	-551
▁acc	-552
▁home	-553
▁When	-554
▁ke	-555
▁man	-556
▁month	-557
get	-558
▁Where	-559
ars	-560
urn	-561
▁things	-562
way	-563
▁Ve	-564
▁night	-565
▁friend	-566
ip	-567
orm	-568
▁play	-569
ather	-570
vie	-571
▁ask	-572
cause	-573
ise	-574
orrow	-575
▁U	-576
▁sm	-577
▁le	-578
mer	-579
ile	-580
▁down	-581
alk	-582
▁nice	-583
▁food	-584
▁most	-585
▁mean	-586
▁Ok	-587
▁his	-588
▁class	-589
ost	-590
▁few	-591
ting	-592
atch	-593
▁where	-594
▁dis	-595
▁Don	-596
▁Ex	-597
▁bl	-598
av	-599
▁cha	-600
▁these	-601
ounds	-602
▁inter	-603
▁still	-604
ful	-605
ait	-606
▁har	-607
▁put	-608
▁stud	-609
iss	-610
▁rec	-611
ese	-612
int	-613
▁into	-614
▁Not	-615
▁again	-616
ire	-617
oss	-618
▁gr	-619
▁doing	-620
ouse	-621
▁Could	-622
▁id	-623
▁sch	-624
ions	-625
▁dep	-626
▁tom	-627
ee	-628
ens	-629
▁their	-630
self	-631
▁fin	-632
ang	-633
▁minut	-634
▁3	-635
▁days	-636
▁big	-637
▁dr	-638
od	-639
▁sc	-640
nder	-641
▁never	-642
pl	-643
▁bad	-644
▁show	-645
▁why	-646
ence	-647
▁school	-648
▁cont	-649
artment	-650
eci	-651
ft	-652
ner	-653
ily	-654
ap	-655
ond	-656
cl	-657
▁Re	-658
▁book	-659
igh	-660
▁tomorrow	-661
▁hour	-662
▁plan	-663
▁ph	-664
ild	-665
iness	-666
▁best	-667
▁fam	-668
▁three	-669
hed	-670
ny	-671
▁St	-672
▁because	-673
▁quite	-674
▁card	-675
▁Eng	-676
ried	-677
▁idea	-678
▁differe	-679
▁under	-680
▁eat	-681
▁years	-682
▁hard	-683
▁looking	-684
▁Engl	-685
▁act	-686
▁seem	-687
vel	-688
▁el	-689
gg	-690
▁All	-691
imes	-692
▁Then	-693
ious	-694
▁thank	-695
▁around	-696
▁made	-697
hes	-698
▁Just	-699
cuse	-700
▁wait	-701
▁Be	-702
▁hop	-703
▁thought	-704
▁count	-705
ock	-706
▁business	-707
▁supp	-708
▁doll	-709
▁house	-710
ew	-711
▁office	-712
ult	-713
▁Please	-714
▁working	-715
▁Thanks	-716
▁order	-717
iv	-718
▁K	-719
▁else	-720
▁English	-721
▁mind	-722
oon	-723
▁drink	-724
▁which	-725
erson	-726
▁sal	-727
▁rest	-728
▁hand	-729
▁$	-730
▁num	-731
aking	-732
▁hot	-733
ations	-734
▁Of	-735
ull	-736
come	-737
les	-738
▁spea	-739
we	-740
form	-741
▁heard	-742
▁dec	-743
▁pa	-744
ord	-745
▁place	-746
▁haven	-747
▁isn	-748
▁care	-749
▁Really	-750
▁keep	-751
▁price	-752
▁Excuse	-753
ten	-754
▁Chinese	-755
▁said	-756
ertain	-757
fer	-758
vers	-759
▁5	-760
▁char	-761
▁att	-762
▁stay	-763
▁doesn	-764
▁op	-765
▁old	-766
▁sha	-767
joy	-768
ank	-769
raid	-770
▁wonder	-771
▁bel	-772
▁each	-773
ix	-774
ieve	-775
▁afraid	-776
ell	-777
noon	-778
oint	-779
▁afternoon	-780
ated	-781
▁different	-782
▁rem	-783
▁em	-784
oth	-785
▁yet	-786
▁number	-787
▁enjoy	-788
▁another	-789
ash	-790
tty	-791
▁dri	-792
▁pass	-793
▁account	-794
ple	-795
▁fine	-796
und	-797
▁bit	-798
▁late	-799
▁hope	-800
▁comput	-801
▁usually	-802
ax	-803
ents	-804
▁ton	-805
▁gl	-806
▁rel	-807
▁din	-808
▁high	-809
wn	-810
▁produ	-811
▁dollars	-812
▁ear	-813
▁serv	-814
ready	-815
ible	-816
▁already	-817
aut	-818
▁des	-819
ular	-820
▁lear	-821
akes	-822
▁import	-823
lic	-824
▁On	-825
▁inv	-826
ical	-827
▁hear	-828
▁happen	-829
▁sounds	-830
▁sk	-831
▁bre	-832
anc	-833
▁beaut	-834
▁while	-835
▁getting	-836
▁sec	-837
▁read	-838
icket	-839
▁minutes	-840
og	-841
▁Now	-842
▁person	-843
ork	-844
▁ra	-845
▁ins	-846
ons	-847
▁ticket	-848
▁same	-849
▁everything	-850
▁cle	-851
▁talk	-852
▁Hey	-853
▁speci	-854
up	-855
▁Maybe	-856
▁pretty	-857
ize	-858
ors	-859
▁ap	-860
▁eas	-861
▁tonight	-862
▁mom	-863
▁change	-864
▁list	-865
▁looks	-866
▁gir	-867
▁such	-868
▁watch	-869
▁used	-870
▁dinner	-871
▁done	-872
▁might	-873
▁special	-874
▁wrong	-875
▁Your	-876
▁mat	-877
ia	-878
▁train	-879
▁evening	-880
▁ter	-881
▁soon	-882
view	-883
▁live	-884
li	-885
▁vis	-886
▁coming	-887
ory	-888
▁open	-889
▁leave	-890
fe	-891
▁exc	-892
ict	-893
▁important	-894
▁cost	-895
▁meeting	-896
▁computer	-897
ember	-898
▁friends	-899
als	-900
▁offer	-901
▁those	-902
▁beautif	-903
▁enough	-904
ertainly	-905
▁tri	-906
▁believe	-907
rough	-908
▁exper	-909
▁Will	-910
▁fo	-911
▁often	-912
▁guess	-913
▁set	-914
pe	-915
▁ever	-916
ments	-917
▁air	-918
ities	-919
▁coll	-920
cept	-921
▁mus	-922
▁Which	-923
▁product	-924
▁cou	-925
▁ready	-926
▁family	-927
▁bo	-928
▁fun	-929
▁fr	-930
arket	-931
ub	-932
▁party	-933
▁city	-934
stand	-935
▁beautiful	-936
aur	-937
▁small	-938
▁reg	-939
its	-940
ren	-941
▁turn	-942
iting	-943
▁through	-944
ian	-945
uck	-946
ps	-947
▁phone	-948
▁shop	-949
▁disc	-950
▁quest	-951
ivers	-952
▁free	-953
▁Fr	-954
ves	-955
▁mar	-956
▁add	-957
uan	-958
▁bring	-959
▁10	-960
ited	-961
ience	-962
meric	-963
▁form	-964
▁country	-965
▁As	-966
▁Any	-967
▁ser	-968
gether	-969
▁stop	-970
gr	-971
ploy	-972
ved	-973
▁Americ	-974
▁run	-975
▁fav	-976
▁left	-977
▁sign	-978
iday	-979
▁inform	-980
▁col	-981
aurant	-982
▁news	-983
▁Al	-984
▁away	-985
▁went	-986
▁send	-987
▁weekend	-988
▁service	-989
▁apartment	-990
ates	-991
▁end	-992
▁ac	-993
▁interested	-994
▁Look	-995
▁pres	-996
▁having	-997
▁For	-998
▁speak	-999
▁China	-1000
▁far	-1001
▁str	-1002
▁movie	-1003
ably	-1004
▁understand	-1005
lcome	-1006
▁Jo	-1007
▁hours	-1008
▁worry	-1009
▁expens	-1010
ctor	-1011
▁imp	-1012
▁break	-1013
▁la	-1014
ince	-1015
▁happy	-1016
▁interview	-1017
▁Who	-1018
▁seems	-1019
▁cons	-1020
▁five	-1021
▁ten	-1022
ices	-1023
▁told	-1024
▁actually	-1025
▁miss	-1026
ping	-1027
▁6	-1028
▁learn	-1029
▁study	-1030
▁Okay	-1031
▁seat	-1032
ract	-1033
▁kid	-1034
▁child	-1035
▁restaurant	-1036
▁music	-1037
ery	-1038
ason	-1039
▁rece	-1040
▁world	-1041
▁moment	-1042
ired	-1043
room	-1044
▁favor	-1045
▁seen	-1046
▁thinking	-1047
▁together	-1048
▁able	-1049
▁girl	-1050
▁found	-1051
terday	-1052
fect	-1053
▁own	-1054
▁av	-1055
ction	-1056
▁market	-1057
▁pos	-1058
ial	-1059
ouble	-1060
▁prefer	-1061
▁ext	-1062
arent	-1063
▁ago	-1064
▁called	-1065
▁4	-1066
bably	-1067
▁remember	-1068
omm	-1069
ever	-1070
▁life	-1071
▁real	-1072
▁7	-1073
ffee	-1074
▁To	-1075
▁Does	-1076
ef	-1077
000	-1078
ating	-1079
▁ret	-1080
unch	-1081
▁four	-1082
▁yesterday	-1083
▁By	-1084
reet	-1085
▁true	-1086
▁experience	-1087
▁ty	-1088
▁myself	-1089
▁expensive	-1090
ward	-1091
▁glad	-1092
ager	-1093
▁poss	-1094
▁sing	-1095
▁being	-1096
▁ok	-1097
most	-1098
▁easy	-1099
air	-1100
▁ma	-1101
▁interesting	-1102
▁8	-1103
iet	-1104
▁sur	-1105
old	-1106
▁comm	-1107
▁New	-1108
▁lar	-1109
▁busy	-1110
ific	-1111
▁trans	-1112
▁water	-1113
ody	-1114
iversity	-1115
▁cook	-1116
▁happened	-1117
▁bed	-1118
▁spend	-1119
▁both	-1120
ient	-1121
▁information	-1122
let	-1123
alth	-1124
▁Wow	-1125
▁Come	-1126
alking	-1127
ib	-1128
▁win	-1129
▁thanks	-1130
▁someone	-1131
▁sl	-1132
ered	-1133
▁Mary	-1134
▁pick	-1135
▁agree	-1136
enty	-1137
▁Sorry	-1138
ife	-1139
▁later	-1140
clud	-1141
▁qual	-1142
ides	-1143
▁coffee	-1144
osed	-1145
hn	-1146
ntil	-1147
▁bir	-1148
▁sit	-1149
▁employ	-1150
▁reserv	-1151
▁adv	-1152
▁flight	-1153
cy	-1154
atur	-1155
▁cor	-1156
▁sever	-1157
▁guy	-1158
▁table	-1159
▁bought	-1160
ely	-1161
▁bank	-1162
▁several	-1163
ift	-1164
leep	-1165
ual	-1166
ished	-1167
tern	-1168
▁prom	-1169
▁until	-1170
▁conf	-1171
▁nothing	-1172
▁sub	-1173
▁yourself	-1174
actly	-1175
▁cred	-1176
▁fill	-1177
▁head	-1178
▁Great	-1179
▁parent	-1180
▁stand	-1181
ied	-1182
▁met	-1183
▁sum	-1184
▁exam	-1185
az	-1186
▁inst	-1187
▁charge	-1188
▁pack	-1189
▁Un	-1190
▁full	-1191
▁dress	-1192
▁suit	-1193
▁position	-1194
ike	-1195
jing	-1196
▁cur	-1197
time	-1198
▁boss	-1199
▁thir	-1200
▁pol	-1201
▁matter	-1202
au	-1203
▁trip	-1204
▁-	-1205
ange	-1206
ject	-1207
▁probably	-1208
▁hair	-1209
▁Tom	-1210
▁beg	-1211
▁ent	-1212
ding	-1213
▁clot	-1214
▁light	-1215
▁short	-1216
▁expect	-1217
▁second	-1218
▁fact	-1219
▁parents	-1220
▁jo	-1221
▁cho	-1222
▁John	-1223
▁near	-1224
▁almost	-1225
ggest	-1226
▁rent	-1227
▁suggest	-1228
ph	-1229
leas	-1230
▁avail	-1231
oor	-1232
▁terri	-1233
▁Sm	-1234
▁saw	-1235
▁travel	-1236
▁weather	-1237
▁intern	-1238
ense	-1239
▁cold	-1240
▁Act	-1241
▁cam	-1242
▁taking	-1243
▁half	-1244
▁wear	-1245
▁birth	-1246
▁weeks	-1247
▁An	-1248
▁times	-1249
▁vac	-1250
▁fore	-1251
▁ind	-1252
▁pop	-1253
▁Actually	-1254
▁war	-1255
▁Every	-1256
▁bill	-1257
▁date	-1258
▁maybe	-1259
▁reservation	-1260
ommend	-1261
ics	-1262
▁sw	-1263
▁ele	-1264
▁grad	-1265
mp	-1266
▁Bei	-1267
▁bag	-1268
▁Beijing	-1269
▁includ	-1270
erc	-1271
▁Our	-1272
▁available	-1273
by	-1274
▁wanted	-1275
▁recommend	-1276
ures	-1277
▁wife	-1278
uring	-1279
▁cash	-1280
ided	-1281
ines	-1282
▁though	-1283
▁deal	-1284
▁possible	-1285
▁credit	-1286
▁clothes	-1287
▁health	-1288
▁manager	-1289
mm	-1290
▁fil	-1291
▁hotel	-1292
br	-1293
ger	-1294
line	-1295
▁bas	-1296
▁walk	-1297
▁calling	-1298
ath	-1299
ries	-1300
oose	-1301
▁9	-1302
▁yuan	-1303
▁visit	-1304
where	-1305
ention	-1306
ces	-1307
reen	-1308
▁red	-1309
ott	-1310
ages	-1311
▁cr	-1312
▁lost	-1313
▁large	-1314
ently	-1315
▁started	-1316
▁months	-1317
▁rather	-1318
▁tour	-1319
▁store	-1320
ball	-1321
▁med	-1322
▁move	-1323
ational	-1324
▁One	-1325
ither	-1326
ues	-1327
▁hur	-1328
ortun	-1329
▁pleas	-1330
▁six	-1331
▁mach	-1332
▁team	-1333
▁clean	-1334
▁birthday	-1335
▁came	-1336
▁cut	-1337
▁exerc	-1338
▁Friday	-1339
ustom	-1340
▁pain	-1341
ont	-1342
▁favorite	-1343
oes	-1344
ffic	-1345
▁sell	-1346
▁doctor	-1347
nce	-1348
ames	-1349
▁Smith	-1350
hip	-1351
▁teac	-1352
▁makes	-1353
▁department	-1354
▁since	-1355
▁wish	-1356
irt	-1357
▁letter	-1358
▁sy	-1359
▁aren	-1360
▁sleep	-1361
ister	-1362
▁main	-1363
▁took	-1364
▁products	-1365
▁Certainly	-1366
ss	-1367
▁At	-1368
aught	-1369
▁wind	-1370
▁fast	-1371
▁ref	-1372
,000	-1373
▁diffic	-1374
▁everyone	-1375
orts	-1376
▁summer	-1377
▁appoint	-1378
pr	-1379
icy	-1380
oll	-1381
▁20	-1382
▁%	-1383
▁15	-1384
▁TV	-1385
▁ve	-1386
▁hon	-1387
▁tea	-1388
▁living	-1389
▁feeling	-1390
cell	-1391
▁bro	-1392
▁ey	-1393
▁early	-1394
▁ca	-1395
▁line	-1396
▁once	-1397
▁lunch	-1398
▁serious	-1399
▁perfect	-1400
▁talking	-1401
osit	-1402
▁dire	-1403
▁shopping	-1404
▁loc	-1405
▁hat	-1406
▁case	-1407
▁Me	-1408
ower	-1409
▁sty	-1410
▁resp	-1411
▁sales	-1412
ream	-1413
▁requ	-1414
▁size	-1415
▁prep	-1416
▁minute	-1417
▁street	-1418
▁bar	-1419
▁tast	-1420
▁First	-1421
▁begin	-1422
na	-1423
▁exactly	-1424
▁ass	-1425
▁sim	-1426
▁luck	-1427
▁wasn	-1428
work	-1429
▁swe	-1430
▁test	-1431
▁making	-1432
cri	-1433
adam	-1434
ident	-1435
gram	-1436
▁write	-1437
▁choose	-1438
▁trying	-1439
raw	-1440
▁Af	-1441
▁tot	-1442
▁accept	-1443
ne	-1444
ming	-1445
▁top	-1446
▁det	-1447
▁wouldn	-1448
rist	-1449
side	-1450
▁maj	-1451
▁consid	-1452
▁custom	-1453
▁art	-1454
▁conc	-1455
▁rain	-1456
▁point	-1457
▁young	-1458
▁difficult	-1459
▁married	-1460
▁Mon	-1461
▁present	-1462
▁Ab	-1463
▁game	-1464
▁apply	-1465
▁problems	-1466
ital	-1467
▁least	-1468
peci	-1469
▁color	-1470
▁whole	-1471
▁couldn	-1472
▁during	-1473
▁prof	-1474
▁quick	-1475
▁Miss	-1476
▁smo	-1477
ility	-1478
got	-1479
aturday	-1480
▁program	-1481
ret	-1482
▁pie	-1483
▁Some	-1484
▁pri	-1485
▁pur	-1486
▁appointment	-1487
▁its	-1488
▁drive	-1489
ege	-1490
cess	-1491
rown	-1492
▁decided	-1493
▁teacher	-1494
▁Fine	-1495
ms	-1496
▁contract	-1497
▁supposed	-1498
▁es	-1499
▁worked	-1500
▁pict	-1501
▁reason	-1502
pecially	-1503
▁report	-1504
▁less	-1505
undred	-1506
▁(	-1507
ush	-1508
urance	-1509
▁tried	-1510
▁post	-1511
▁Right	-1512
▁books	-1513
▁tired	-1514
▁Sh	-1515
▁side	-1516
cellent	-1517
▁children	-1518
ling	-1519
▁gradu	-1520
▁receive	-1521
▁Saturday	-1522
ume	-1523
▁major	-1524
▁question	-1525
▁university	-1526
▁says	-1527
▁along	-1528
▁questions	-1529
▁return	-1530
▁wonderful	-1531
▁mess	-1532
▁build	-1533
▁rep	-1534
▁cent	-1535
▁paper	-1536
▁Christ	-1537
▁popular	-1538
▁12	-1539
▁comes	-1540
▁couple	-1541
aper	-1542
uss	-1543
▁listen	-1544
▁partic	-1545
cu	-1546
▁wom	-1547
led	-1548
▁speaking	-1549
ced	-1550
▁hundred	-1551
olut	-1552
▁arri	-1553
▁allow	-1554
▁chance	-1555
ru	-1556
oup	-1557
▁ed	-1558
▁sn	-1559
▁exercise	-1560
less	-1561
▁foot	-1562
▁mem	-1563
▁without	-1564
▁finished	-1565
▁tax	-1566
▁either	-1567
▁foreign	-1568
ween	-1569
▁chick	-1570
▁deposit	-1571
▁terrible	-1572
▁vacation	-1573
▁certainly	-1574
ature	-1575
▁word	-1576
▁attend	-1577
esides	-1578
▁complet	-1579
itc	-1580
head	-1581
▁Jan	-1582
▁inc	-1583
▁insurance	-1584
▁boy	-1585
ec	-1586
hang	-1587
▁opp	-1588
ately	-1589
▁gi	-1590
astic	-1591
▁bott	-1592
▁salary	-1593
▁American	-1594
ings	-1595
ision	-1596
▁hold	-1597
▁between	-1598
▁i	-1599
ier	-1600
▁Welcome	-1601
cle	-1602
▁cond	-1603
▁welcome	-1604
▁eff	-1605
▁kinds	-1606
▁winter	-1607
▁consider	-1608
zy	-1609
uff	-1610
vert	-1611
▁past	-1612
▁rate	-1613
▁wine	-1614
▁After	-1615
▁asked	-1616
▁gen	-1617
▁sun	-1618
▁dance	-1619
▁sometimes	-1620
▁catch	-1621
▁relax	-1622
man	-1623
band	-1624
▁Per	-1625
▁especially	-1626
▁prov	-1627
▁weight	-1628
▁college	-1629
▁join	-1630
▁floor	-1631
▁needs	-1632
▁face	-1633
een	-1634
▁Li	-1635
▁key	-1636
angu	-1637
haps	-1638
▁par	-1639
▁condition	-1640
ared	-1641
▁reading	-1642
lain	-1643
ness	-1644
▁Somet	-1645
▁goods	-1646
ails	-1647
stem	-1648
▁box	-1649
ousand	-1650
▁fig	-1651
▁forget	-1652
▁trouble	-1653
body	-1654
▁Very	-1655
▁yeah	-1656
▁super	-1657
▁lik	-1658
ins	-1659
▁gift	-1660
▁Sir	-1661
▁fit	-1662
▁mil	-1663
▁system	-1664
▁thirty	-1665
ield	-1666
▁ones	-1667
uc	-1668
cial	-1669
▁pract	-1670
▁quality	-1671
▁recently	-1672
▁park	-1673
▁chicken	-1674
▁personal	-1675
ives	-1676
▁men	-1677
▁traffic	-1678
▁thousand	-1679
▁pub	-1680
▁extra	-1681
▁suppose	-1682
▁twenty	-1683
▁outside	-1684
▁planning	-1685
▁type	-1686
▁single	-1687
ung	-1688
▁30	-1689
resh	-1690
▁York	-1691
▁docu	-1692
aces	-1693
llow	-1694
▁Com	-1695
▁paid	-1696
▁def	-1697
▁hate	-1698
▁conven	-1699
rent	-1700
▁hus	-1701
▁Nice	-1702
ountain	-1703
▁husband	-1704
▁playing	-1705
▁Tell	-1706
▁seven	-1707
▁honest	-1708
▁Z	-1709
▁cop	-1710
▁Jack	-1711
▁lose	-1712
▁Sounds	-1713
▁aw	-1714
reci	-1715
ross	-1716
solut	-1717
▁sports	-1718
▁appreci	-1719
▁machine	-1720
vies	-1721
▁passport	-1722
sh	-1723
ised	-1724
▁style	-1725
▁excellent	-1726
pect	-1727
▁langu	-1728
▁waiting	-1729
ses	-1730
▁kids	-1731
itchen	-1732
▁chang	-1733
outh	-1734
▁Take	-1735
▁total	-1736
▁movies	-1737
ees	-1738
▁hol	-1739
▁sche	-1740
▁sick	-1741
▁kitchen	-1742
arch	-1743
olog	-1744
inite	-1745
▁means	-1746
fast	-1747
▁project	-1748
ug	-1749
ave	-1750
aken	-1751
▁swim	-1752
▁close	-1753
▁online	-1754
velop	-1755
▁Ta	-1756
▁Pro	-1757
▁finish	-1758
▁mother	-1759
▁Anything	-1760
▁particular	-1761
▁100	-1762
▁dog	-1763
ondon	-1764
▁sale	-1765
▁clear	-1766
▁London	-1767
▁window	-1768
▁America	-1769
▁Mom	-1770
▁eight	-1771
▁shall	-1772
solutely	-1773
dule	-1774
clock	-1775
▁sister	-1776
mas	-1777
▁depend	-1778
sw	-1779
irm	-1780
ric	-1781
▁veget	-1782
▁discuss	-1783
▁tickets	-1784
▁internet	-1785
▁mag	-1786
▁ball	-1787
▁treat	-1788
▁forgot	-1789
▁Because	-1790
▁pleasure	-1791
▁leaving	-1792
col	-1793
ead	-1794
▁Ste	-1795
▁ord	-1796
▁stuff	-1797
▁breakfast	-1798
▁ev	-1799
▁bor	-1800
▁cup	-1801
▁deli	-1802
▁wants	-1803
▁impress	-1804
▁white	-1805
▁amount	-1806
▁Sha	-1807
▁answ	-1808
▁ahead	-1809
▁convenient	-1810
con	-1811
ative	-1812
▁taken	-1813
▁brother	-1814
iron	-1815
▁mid	-1816
▁double	-1817
▁black	-1818
▁press	-1819
▁father	-1820
ency	-1821
ables	-1822
ove	-1823
▁Intern	-1824
▁countries	-1825
ral	-1826
ator	-1827
ashion	-1828
▁discount	-1829
▁Christmas	-1830
ton	-1831
▁lovely	-1832
▁env	-1833
▁whe	-1834
▁follow	-1835
▁student	-1836
ully	-1837
▁ann	-1838
▁fresh	-1839
▁plans	-1840
▁forward	-1841
▁watching	-1842
nter	-1843
▁aff	-1844
▁wondering	-1845
▁Go	-1846
▁rooms	-1847
▁anyone	-1848
▁transfer	-1849
▁cat	-1850
hange	-1851
▁takes	-1852
▁schedule	-1853
▁students	-1854
▁respons	-1855
ium	-1856
ills	-1857
▁ship	-1858
▁design	-1859
▁mail	-1860
▁games	-1861
▁gener	-1862
eed	-1863
▁cra	-1864
▁cool	-1865
▁front	-1866
▁shoes	-1867
▁address	-1868
▁oh	-1869
▁fix	-1870
▁goes	-1871
▁stra	-1872
▁tele	-1873
osp	-1874
▁Pe	-1875
▁Bob	-1876
▁sat	-1877
▁Monday	-1878
▁Besides	-1879
▁var	-1880
▁okay	-1881
▁madam	-1882
▁perform	-1883
▁Cl	-1884
▁ben	-1885
▁About	-1886
▁dro	-1887
▁phot	-1888
▁become	-1889
▁promot	-1890
▁Alright	-1891
hai	-1892
pped	-1893
▁tem	-1894
▁applic	-1895
ring	-1896
▁Acc	-1897
▁Comp	-1898
▁sent	-1899
initely	-1900
▁famous	-1901
▁bedroom	-1902
▁opportun	-1903
▁direct	-1904
apan	-1905
▁Dad	-1906
0.	-1907
IB	-1908
ior	-1909
ken	-1910
▁RIB	-1911
▁deg	-1912
▁fall	-1913
▁wall	-1914
edding	-1915
▁recei	-1916
▁handle	-1917
▁appreciate	-1918
▁bath	-1919
▁hig	-1920
▁item	-1921
▁surpr	-1922
▁strong	-1923
▁door	-1924
▁employees	-1925
▁arr	-1926
▁aut	-1927
▁gets	-1928
▁Japan	-1929
▁collect	-1930
▁profess	-1931
▁heav	-1932
▁These	-1933
▁manage	-1934
ulations	-1935
▁running	-1936
▁building	-1937
▁Ah	-1938
cent	-1939
▁hist	-1940
▁elect	-1941
▁sound	-1942
▁public	-1943
▁Sometimes	-1944
ys	-1945
▁200	-1946
▁advert	-1947
▁kidding	-1948
min	-1949
▁libr	-1950
▁football	-1951
son	-1952
▁gone	-1953
▁station	-1954
▁studying	-1955
▁Ro	-1956
▁step	-1957
▁effect	-1958
▁invest	-1959
▁exchange	-1960
bs	-1961
bers	-1962
▁eyes	-1963
▁furn	-1964
▁pair	-1965
▁shirt	-1966
▁choice	-1967
▁low	-1968
ption	-1969
▁area	-1970
▁mine	-1971
▁stock	-1972
▁Mrs	-1973
▁driving	-1974
▁Tw	-1975
▁field	-1976
▁taste	-1977
▁wedding	-1978
▁Wait	-1979
▁With	-1980
▁newsp	-1981
▁ide	-1982
▁lots	-1983
▁road	-1984
▁excited	-1985
▁library	-1986
ump	-1987
ighb	-1988
▁Most	-1989
▁soft	-1990
▁neighb	-1991
▁places	-1992
mes	-1993
▁Bill	-1994
▁classes	-1995
▁current	-1996
▁instead	-1997
▁exciting	-1998
me	-1999
cha	-2000
▁hu	-2001
fort	-2002
▁Steven	-2003
nect	-2004
▁hor	-2005
▁priv	-2006
▁lucky	-2007
lor	-2008
uit	-2009
▁US	-2010
▁hurt	-2011
▁longer	-2012
▁record	-2013
ets	-2014
▁mod	-2015
▁pot	-2016
▁fish	-2017
▁trad	-2018
▁girls	-2019
▁medic	-2020
cel	-2021
ched	-2022
vern	-2023
▁amaz	-2024
▁contact	-2025
rect	-2026
▁blue	-2027
▁camp	-2028
▁desk	-2029
▁intro	-2030
▁quickly	-2031
oud	-2032
rat	-2033
▁Sp	-2034
▁Dav	-2035
▁son	-2036
▁quiet	-2037
to	-2038
ants	-2039
ters	-2040
▁Jim	-2041
▁See	-2042
▁danc	-2043
▁meat	-2044
▁Perhaps	-2045
▁mountain	-2046
erve	-2047
ored	-2048
ories	-2049
▁mist	-2050
▁benef	-2051
▁sense	-2052
▁compan	-2053
▁lately	-2054
▁Wang	-2055
aff	-2056
dle	-2057
ccess	-2058
▁grow	-2059
itional	-2060
▁secret	-2061
▁success	-2062
com	-2063
▁lu	-2064
ache	-2065
▁heavy	-2066
▁plane	-2067
▁fashion	-2068
▁writing	-2069
▁language	-2070
▁straight	-2071
▁50	-2072
iced	-2073
▁fair	-2074
▁local	-2075
▁counter	-2076
▁shouldn	-2077
els	-2078
iew	-2079
isf	-2080
▁dist	-2081
▁board	-2082
chn	-2083
▁Ms	-2084
▁educ	-2085
ording	-2086
▁subway	-2087
▁diet	-2088
▁view	-2089
▁prices	-2090
eter	-2091
▁sort	-2092
▁town	-2093
▁grand	-2094
▁daught	-2095
mit	-2096
▁hands	-2097
▁afford	-2098
▁anyway	-2099
▁bab	-2100
▁Sund	-2101
▁song	-2102
▁brand	-2103
▁guest	-2104
▁magaz	-2105
▁result	-2106
▁environ	-2107
▁received	-2108
▁companies	-2109
:00	-2110
more	-2111
▁People	-2112
▁answer	-2113
▁stress	-2114
▁amazing	-2115
▁develop	-2116
▁save	-2117
▁resume	-2118
▁cooking	-2119
▁whether	-2120
den	-2121
▁cas	-2122
▁lead	-2123
▁blood	-2124
▁except	-2125
▁satisf	-2126
▁holiday	-2127
▁/	-2128
▁hi	-2129
aged	-2130
▁others	-2131
▁environment	-2132
mb	-2133
▁z	-2134
ients	-2135
▁nerv	-2136
▁payment	-2137
▁regular	-2138
rol	-2139
▁dam	-2140
fully	-2141
▁Many	-2142
▁flow	-2143
▁impro	-2144
▁decide	-2145
▁training	-2146
▁eng	-2147
▁law	-2148
▁soup	-2149
▁crazy	-2150
▁green	-2151
▁percent	-2152
▁receipt	-2153
▁vegetables	-2154
5.	-2155
ospital	-2156
▁Nothing	-2157
▁difference	-2158
▁ID	-2159
▁del	-2160
▁cars	-2161
▁knew	-2162
▁David	-2163
▁advice	-2164
▁compet	-2165
▁depends	-2166
▁University	-2167
ote	-2168
▁Br	-2169
▁Tr	-2170
▁land	-2171
fortable	-2172
▁picture	-2173
▁Mike	-2174
▁Tues	-2175
▁skin	-2176
▁notice	-2177
▁Tuesday	-2178
ym	-2179
▁Tai	-2180
▁leg	-2181
▁tou	-2182
▁typ	-2183
▁sand	-2184
▁eating	-2185
▁correct	-2186
▁finally	-2187
▁mention	-2188
▁given	-2189
▁Sunday	-2190
ma	-2191
har	-2192
▁using	-2193
▁asking	-2194
▁govern	-2195
▁provide	-2196
▁daughter	-2197
mon	-2198
▁lat	-2199
ration	-2200
▁yours	-2201
gan	-2202
ising	-2203
▁film	-2204
▁cover	-2205
▁techn	-2206
▁figure	-2207
▁regist	-2208
▁connect	-2209
▁private	-2210
▁worried	-2211
▁learning	-2212
med	-2213
icle	-2214
▁Isn	-2215
▁equ	-2216
▁val	-2217
▁clim	-2218
itting	-2219
ilities	-2220
lfriend	-2221
▁example	-2222
▁somewhere	-2223
eng	-2224
▁Hmm	-2225
▁ice	-2226
▁cheap	-2227
▁woman	-2228
▁assist	-2229
▁details	-2230
▁nervous	-2231
▁attention	-2232
▁application	-2233
eak	-2234
ots	-2235
por	-2236
▁jobs	-2237
▁space	-2238
▁temper	-2239
▁enjoyed	-2240
▁package	-2241
road	-2242
▁ste	-2243
▁Jane	-2244
▁beef	-2245
▁contin	-2246
▁attract	-2247
▁girlfriend	-2248
ah	-2249
dy	-2250
▁fif	-2251
▁oper	-2252
▁delic	-2253
▁staff	-2254
▁necess	-2255
▁anymore	-2256
▁introdu	-2257
▁learned	-2258
▁definitely	-2259
ancy	-2260
▁gym	-2261
ically	-2262
▁higher	-2263
▁Internet	-2264
bo	-2265
gy	-2266
mail	-2267
▁fre	-2268
▁gra	-2269
uture	-2270
▁dear	-2271
▁earli	-2272
▁words	-2273
▁Company	-2274
▁documents	-2275
▁absolutely	-2276
▁performance	-2277
aw	-2278
ina	-2279
▁Ne	-2280
▁div	-2281
▁sol	-2282
conom	-2283
▁club	-2284
▁glass	-2285
▁proper	-2286
▁require	-2287
iod	-2288
▁cream	-2289
▁sight	-2290
▁seeing	-2291
▁healthy	-2292
▁swimming	-2293
▁ride	-2294
▁Shall	-2295
▁spent	-2296
▁period	-2297
▁hospital	-2298
urs	-2299
▁19	-2300
ggage	-2301
▁worth	-2302
ertific	-2303
hanghai	-2304
▁within	-2305
antastic	-2306
▁arrange	-2307
che	-2308
sel	-2309
▁Was	-2310
▁star	-2311
▁chocol	-2312
▁decision	-2313
▁Q	-2314
rees	-2315
▁fly	-2316
▁gave	-2317
▁Brown	-2318
▁camer	-2319
▁carry	-2320
▁costs	-2321
▁fruit	-2322
▁descri	-2323
▁future	-2324
▁indust	-2325
▁luggage	-2326
ern	-2327
▁25	-2328
▁mot	-2329
▁items	-2330
▁piece	-2331
▁buying	-2332
▁drinks	-2333
▁Bl	-2334
▁ce	-2335
▁egg	-2336
▁pat	-2337
▁cann	-2338
▁famil	-2339
▁hurry	-2340
▁simple	-2341
▁checking	-2342
▁relations	-2343
▁Aust	-2344
▁baby	-2345
▁nine	-2346
▁organ	-2347
▁plenty	-2348
▁airport	-2349
▁Dan	-2350
▁guys	-2351
ongrat	-2352
▁sweet	-2353
▁Hot	-2354
▁Sus	-2355
▁final	-2356
▁inside	-2357
▁newspaper	-2358
unk	-2359
aster	-2360
▁copy	-2361
▁beach	-2362
▁latest	-2363
▁Gr	-2364
ional	-2365
▁Didn	-2366
▁cake	-2367
▁funny	-2368
▁heart	-2369
▁government	-2370
ney	-2371
ude	-2372
gage	-2373
▁round	-2374
▁courses	-2375
▁completely	-2376
▁Dep	-2377
▁bur	-2378
▁lab	-2379
▁menu	-2380
▁history	-2381
wan	-2382
▁De	-2383
iture	-2384
▁dream	-2385
▁concert	-2386
mo	-2387
▁ob	-2388
▁withd	-2389
--	-2390
▁Two	-2391
▁taxi	-2392
▁touch	-2393
▁middle	-2394
▁policy	-2395
▁Everything	-2396
ongratulations	-2397
30	-2398
set	-2399
▁meal	-2400
▁Susan	-2401
▁skills	-2402
▁prepare	-2403
▁Ad	-2404
▁sci	-2405
▁sea	-2406
rench	-2407
▁loan	-2408
▁parking	-2409
▁Shanghai	-2410
▁delivery	-2411
hind	-2412
▁fire	-2413
▁hung	-2414
▁kill	-2415
▁semes	-2416
▁trade	-2417
▁improve	-2418
▁pressure	-2419
▁customers	-2420
ival	-2421
▁warm	-2422
▁incre	-2423
▁withdraw	-2424
ortunately	-2425
hib	-2426
quare	-2427
▁clock	-2428
▁mater	-2429
▁terms	-2430
▁Taiwan	-2431
▁purcha	-2432
▁Austral	-2433
▁explain	-2434
unt	-2435
▁Or	-2436
lymp	-2437
erence	-2438
▁Olymp	-2439
▁brought	-2440
▁careful	-2441
▁flowers	-2442
▁overtime	-2443
▁comfortable	-2444
oub	-2445
▁fa	-2446
▁Mar	-2447
▁fat	-2448
▁fur	-2449
▁Give	-2450
estern	-2451
▁appro	-2452
▁behind	-2453
▁corner	-2454
▁alright	-2455
▁semester	-2456
▁ri	-2457
ware	-2458
▁hit	-2459
▁broke	-2460
▁earlier	-2461
▁results	-2462
▁medicine	-2463
▁pictures	-2464
▁furniture	-2465
ze	-2466
▁Che	-2467
▁Mic	-2468
▁sil	-2469
▁opin	-2470
▁tall	-2471
▁ideas	-2472
▁driver	-2473
▁message	-2474
ica	-2475
selves	-2476
▁print	-2477
▁works	-2478
▁States	-2479
▁accident	-2480
▁services	-2481
▁international	-2482
\'	-2483
▁ur	-2484
▁lic	-2485
▁charac	-2486
▁telling	-2487
go	-2488
▁ju	-2489
airs	-2490
▁eye	-2491
▁liked	-2492
▁spicy	-2493
▁French	-2494
▁necessary	-2495
▁opportunity	-2496
▁Day	-2497
▁cal	-2498
▁occ	-2499
essert	-2500
▁dishes	-2501
▁chocolate	-2502
ppy	-2503
▁Get	-2504
▁God	-2505
▁sho	-2506
apers	-2507
▁fight	-2508
▁state	-2509
▁commun	-2510
▁saying	-2511
▁smoking	-2512
▁delicious	-2513
▁fantastic	-2514
bye	-2515
▁Am	-2516
▁dry	-2517
anger	-2518
▁body	-2519
▁snow	-2520
▁webs	-2521
▁breat	-2522
▁match	-2523
▁hungry	-2524
co	-2525
▁Su	-2526
iter	-2527
▁hum	-2528
▁beer	-2529
▁fift	-2530
▁salad	-2531
▁teach	-2532
▁abroad	-2533
▁cannot	-2534
▁against	-2535
▁control	-2536
io	-2537
lex	-2538
enny	-2539
land	-2540
▁fac	-2541
phone	-2542
▁Hong	-2543
▁third	-2544
▁degree	-2545
▁police	-2546
▁dessert	-2547
▁shipment	-2548
▁management	-2549
arb	-2550
ified	-2551
▁bottle	-2552
▁staying	-2553
rew	-2554
uth	-2555
▁dead	-2556
▁milk	-2557
▁ways	-2558
▁women	-2559
▁beginning	-2560
▁education	-2561
tle	-2562
uro	-2563
▁cap	-2564
ology	-2565
▁hang	-2566
▁Anyway	-2567
▁player	-2568
▁pounds	-2569
iar	-2570
nis	-2571
▁iss	-2572
▁moved	-2573
amb	-2574
▁pan	-2575
▁Room	-2576
▁prev	-2577
▁sold	-2578
▁fifty	-2579
▁seats	-2580
ety	-2581
ien	-2582
ips	-2583
▁18	-2584
▁Ma	-2585
ured	-2586
▁hob	-2587
▁likes	-2588
▁further	-2589
▁promise	-2590
▁temperature	-2591
▁fee	-2592
▁ill	-2593
▁redu	-2594
▁Those	-2595
▁customer	-2596
bed	-2597
nel	-2598
book	-2599
ogra	-2600
orge	-2601
▁Lin	-2602
pping	-2603
▁Last	-2604
▁draw	-2605
▁White	-2606
ination	-2607
▁process	-2608
▁practice	-2609
lt	-2610
ket	-2611
imum	-2612
lebr	-2613
▁anim	-2614
▁poll	-2615
▁Hotel	-2616
▁celebr	-2617
pri	-2618
ones	-2619
▁oil	-2620
▁Even	-2621
▁Next	-2622
▁roll	-2623
ission	-2624
▁Since	-2625
▁However	-2626
▁cheaper	-2627
cks	-2628
tt	-2629
bit	-2630
iqu	-2631
▁16	-2632
ution	-2633
▁coat	-2634
▁mill	-2635
▁spec	-2636
estival	-2637
▁paying	-2638
▁changed	-2639
▁checked	-2640
▁section	-2641
▁according	-2642
ped	-2643
medi	-2644
▁unf	-2645
▁flat	-2646
▁note	-2647
ursday	-2648
▁cards	-2649
▁tennis	-2650
▁graduate	-2651
de	-2652
izz	-2653
▁11	-2654
▁Um	-2655
▁Mac	-2656
▁Wor	-2657
itive	-2658
▁Make	-2659
▁Madam	-2660
▁enter	-2661
▁foods	-2662
▁common	-2663
▁dancing	-2664
BA	-2665
used	-2666
▁Jul	-2667
▁dark	-2668
▁slow	-2669
ground	-2670
▁Honey	-2671
▁boring	-2672
▁opinion	-2673
▁drinking	-2674
five	-2675
ized	-2676
▁Mark	-2677
▁Year	-2678
▁dish	-2679
▁kept	-2680
▁stom	-2681
▁Today	-2682
▁fifteen	-2683
▁prescri	-2684
▁benefits	-2685
▁computers	-2686
▁promotion	-2687
▁relationship	-2688
▁juice	-2689
▁natur	-2690
▁offic	-2691
▁anywhere	-2692
▁advertise	-2693
off	-2694
onna	-2695
over	-2696
vings	-2697
▁Bank	-2698
▁pull	-2699
friend	-2700
▁exhib	-2701
▁share	-2702
▁throw	-2703
▁twice	-2704
▁econom	-2705
▁turned	-2706
▁transport	-2707
▁chat	-2708
▁hous	-2709
ancial	-2710
▁Green	-2711
▁Peter	-2712
▁speed	-2713
▁booked	-2714
▁inspect	-2715
▁mistake	-2716
▁support	-2717
oc	-2718
kes	-2719
ron	-2720
▁Pa	-2721
gest	-2722
▁Car	-2723
▁Man	-2724
▁Euro	-2725
▁cell	-2726
▁rout	-2727
▁Should	-2728
▁Street	-2729
▁United	-2730
▁looked	-2731
▁moving	-2732
▁allowed	-2733
ertificate	-2734
▁including	-2735
XX	-2736
oice	-2737
▁rid	-2738
▁wat	-2739
wards	-2740
▁norm	-2741
▁ring	-2742
▁raise	-2743
▁spare	-2744
▁include	-2745
▁complain	-2746
▁industry	-2747
▁standard	-2748
eag	-2749
uct	-2750
umn	-2751
▁Off	-2752
▁wake	-2753
idence	-2754
▁invol	-2755
▁truth	-2756
▁borrow	-2757
▁colors	-2758
▁finding	-2759
▁license	-2760
ilt	-2761
▁net	-2762
▁cult	-2763
▁rush	-2764
▁motor	-2765
▁story	-2766
▁arrive	-2767
▁export	-2768
00.	-2769
ists	-2770
board	-2771
▁charg	-2772
▁earth	-2773
▁season	-2774
▁prepared	-2775
oof	-2776
▁age	-2777
▁dra	-2778
▁non	-2779
▁Like	-2780
▁cart	-2781
▁hasn	-2782
▁visa	-2783
▁score	-2784
ibility	-2785
▁broken	-2786
▁camera	-2787
▁nights	-2788
ployment	-2789
▁members	-2790
▁website	-2791
▁willing	-2792
▁Thursday	-2793
▁expected	-2794
▁included	-2795
▁Australia	-2796
▁responsible	-2797
▁Gu	-2798
anna	-2799
▁Park	-2800
▁drop	-2801
▁prop	-2802
▁gonna	-2803
▁worse	-2804
▁happens	-2805
▁noticed	-2806
▁schools	-2807
gar	-2808
ials	-2809
rowd	-2810
▁Cor	-2811
▁kil	-2812
uation	-2813
▁crowd	-2814
▁miles	-2815
▁basket	-2816
▁washing	-2817
▁traditional	-2818
▁Congratulations	-2819
ify	-2820
ipe	-2821
▁Ar	-2822
ules	-2823
▁Only	-2824
▁sele	-2825
▁alone	-2826
▁upset	-2827
▁campus	-2828
▁immedi	-2829
▁instru	-2830
▁walking	-2831
▁starting	-2832
▁conditions	-2833
aim	-2834
une	-2835
▁Em	-2836
▁da	-2837
vell	-2838
▁tow	-2839
▁Yuan	-2840
▁fund	-2841
▁neck	-2842
▁quit	-2843
▁cable	-2844
▁lower	-2845
▁bother	-2846
▁giving	-2847
▁missed	-2848
▁passed	-2849
▁colleag	-2850
▁factory	-2851
▁neighbor	-2852
rem	-2853
ute	-2854
illy	-2855
▁est	-2856
▁pool	-2857
▁rese	-2858
▁cents	-2859
▁clients	-2860
▁40	-2861
▁Hu	-2862
▁di	-2863
▁et	-2864
hood	-2865
aches	-2866
adays	-2867
arden	-2868
▁fail	-2869
▁baggage	-2870
▁subject	-2871
lo	-2872
zen	-2873
ined	-2874
▁bow	-2875
▁gas	-2876
▁tie	-2877
ances	-2878
▁power	-2879
▁smell	-2880
▁career	-2881
▁Exactly	-2882
▁concern	-2883
▁Everyone	-2884
▁marketing	-2885
ts	-2886
▁Te	-2887
iring	-2888
▁nose	-2889
▁wash	-2890
▁boxes	-2891
▁formal	-2892
▁bathroom	-2893
▁familiar	-2894
▁painting	-2895
▁bal	-2896
▁bon	-2897
▁Paul	-2898
▁scen	-2899
▁group	-2900
▁honey	-2901
▁	-2902
e	-2903
t	-2904
o	-2905
a	-2906
n	-2907
i	-2908
s	-2909
r	-2910
h	-2911
l	-2912
u	-2913
d	-2914
y	-2915
.	-2916
m	-2917
c	-2918
g	-2919
w	-2920
f	-2921
p	-2922
I	-2923
b	-2924
k	-2925
,	-2926
v	-2927
?	-2928
'	-2929
W	-2930
T	-2931
Y	-2932
H	-2933
A	-2934
S	-2935
M	-2936
!	-2937
x	-2938
C	-2939
D	-2940
j	-2941
O	-2942
B	-2943
N	-2944
0	-2945
-	-2946
L	-2947
q	-2948
E	-2949
G	-2950
P	-2951
F	-2952
J	-2953
1	-2954
z	-2955
R	-2956
K	-2957
2	-2958
V	-2959
5	-2960
3	-2961
U	-2962
8	-2963
6	-2964
4	-2965
9	-2966
7	-2967
$	-2968
:	-2969
;	-2970
%	-2971
(	-2972
)	-2973
Z	-2974
X	-2975
Q	-2976
/	-2977
\	-2978
—	-2979
&	-2980
£	-2981
–	-2982
+	-2983
~	-2984
@	-2985
¥	-2986
、	-2987
*	-2988
°	-2989
′	-2990
#	-2991
=	-2992
_	-2993
